{
  " ": 39,
  "-": 40,
  "0": 29,
  "1": 30,
  "2": 31,
  "3": 32,
  "4": 33,
  "5": 34,
  "6": 35,
  "7": 36,
  "8": 37,
  "9": 38,
  "<|": 41,
  "<|e": 47,
  "<|endoftext|>": 1,
  "<|s": 42,
  "<|startoftext|>": 0,
  "<|unk|>": 2,
  "A": 3,
  "A0": 172,
  "A02": 582,
  "A03": 1229,
  "A04": 360,
  "A07": 1223,
  "A08": 330,
  "A09": 173,
  "A1": 802,
  "A16": 803,
  "A18": 1084,
  "A2": 1132,
  "A27": 1133,
  "A28": 1142,
  "A3": 810,
  "A31": 1226,
  "A32": 1184,
  "A39": 811,
  "A4": 294,
  "A40": 1188,
  "A41": 295,
  "A46": 650,
  "A48": 1160,
  "A49": 316,
  "A6": 364,
  "A60": 990,
  "A63": 365,
  "A66": 1263,
  "A69": 717,
  "A8": 786,
  "A80": 944,
  "A85": 1241,
  "A86": 1059,
  "A87": 787,
  "A9": 1248,
  "A90": 1249,
  "B": 4,
  "B0": 398,
  "B00": 899,
  "B01": 1180,
  "B02": 399,
  "B07": 636,
  "B08": 678,
  "B09": 1156,
  "B1": 122,
  "B15": 856,
  "B16": 976,
  "B17": 123,
  "B18": 688,
  "B2": 565,
  "B21": 1036,
  "B24": 566,
  "B25": 1141,
  "B27": 601,
  "B3": 152,
  "B30": 947,
  "B34": 512,
  "B35": 157,
  "B36": 1082,
  "B37": 153,
  "B4": 190,
  "B44": 191,
  "B49": 974,
  "B5": 963,
  "B50": 1049,
  "B51": 1224,
  "B54": 983,
  "B59": 964,
  "B8": 607,
  "B80": 1135,
  "B82": 608,
  "B86": 950,
  "B88": 1219,
  "B9": 45,
  "B91": 874,
  "B94": 1176,
  "B95": 504,
  "B96": 171,
  "B97": 502,
  "B98": 46,
  "B99": 429,
  "C": 5,
  "C0": 457,
  "C00": 458,
  "C01": 658,
  "C02": 1063,
  "C03": 1193,
  "C05": 1045,
  "C06": 1056,
  "C07": 535,
  "C08": 783,
  "C09": 830,
  "C1": 388,
  "C10": 1046,
  "C11": 806,
  "C15": 927,
  "C16": 901,
  "C17": 1196,
  "C18": 389,
  "C19": 836,
  "C2": 514,
  "C20": 649,
  "C21": 1104,
  "C22": 808,
  "C25": 515,
  "C3": 58,
  "C30": 865,
  "C31": 1017,
  "C32": 59,
  "C34": 230,
  "C38": 879,
  "C4": 233,
  "C40": 1211,
  "C41": 807,
  "C43": 500,
  "C44": 234,
  "C45": 768,
  "C48": 741,
  "C49": 773,
  "C5": 257,
  "C50": 258,
  "C51": 1122,
  "C53": 956,
  "C54": 594,
  "C55": 1131,
  "C56": 606,
  "C57": 851,
  "C6": 128,
  "C60": 306,
  "C61": 129,
  "C62": 631,
  "C64": 691,
  "C65": 1113,
  "C67": 181,
  "C69": 1027,
  "C7": 446,
  "C71": 642,
  "C73": 583,
  "C74": 1001,
  "C75": 904,
  "C76": 1169,
  "C77": 705,
  "C78": 447,
  "C79": 771,
  "C8": 317,
  "C80": 924,
  "C81": 777,
  "C82": 833,
  "C83": 318,
  "C84": 962,
  "C85": 531,
  "C88": 1098,
  "C9": 720,
  "C90": 844,
  "C91": 721,
  "C92": 770,
  "C93": 1071,
  "C97": 998,
  "D": 6,
  "D0": 408,
  "D00": 718,
  "D01": 1014,
  "D03": 542,
  "D04": 520,
  "D05": 409,
  "D06": 683,
  "D07": 483,
  "D09": 941,
  "D1": 72,
  "D10": 106,
  "D11": 885,
  "D12": 73,
  "D13": 629,
  "D14": 793,
  "D15": 519,
  "D16": 917,
  "D17": 293,
  "D18": 130,
  "D2": 66,
  "D21": 290,
  "D22": 368,
  "D23": 67,
  "D24": 335,
  "D25": 283,
  "D26": 825,
  "D27": 760,
  "D28": 931,
  "D29": 1006,
  "D3": 405,
  "D30": 837,
  "D31": 977,
  "D32": 632,
  "D33": 569,
  "D34": 643,
  "D35": 568,
  "D36": 406,
  "D37": 707,
  "D38": 1198,
  "D39": 1097,
  "D4": 379,
  "D40": 435,
  "D41": 380,
  "D43": 507,
  "D44": 1146,
  "D45": 969,
  "D46": 708,
  "D47": 497,
  "D48": 759,
  "D5": 266,
  "D50": 267,
  "D51": 472,
  "D52": 1123,
  "D53": 1210,
  "D56": 857,
  "D57": 894,
  "D58": 498,
  "D59": 988,
  "D6": 70,
  "D61": 914,
  "D62": 1178,
  "D63": 320,
  "D64": 71,
  "D66": 595,
  "D67": 1158,
  "D68": 221,
  "D69": 319,
  "D7": 94,
  "D70": 95,
  "D72": 884,
  "D73": 831,
  "D74": 1247,
  "D75": 1020,
  "D76": 1182,
  "D8": 194,
  "D80": 359,
  "D83": 1166,
  "D84": 195,
  "D86": 509,
  "D89": 693,
  "E": 7,
  "E0": 177,
  "E02": 938,
  "E03": 178,
  "E04": 275,
  "E05": 485,
  "E06": 668,
  "E07": 639,
  "E1": 101,
  "E10": 357,
  "E11": 102,
  "E14": 287,
  "E16": 616,
  "E2": 536,
  "E20": 1231,
  "E21": 537,
  "E22": 981,
  "E23": 581,
  "E26": 997,
  "E27": 580,
  "E28": 823,
  "E29": 788,
  "E3": 1021,
  "E34": 1022,
  "E4": 1003,
  "E46": 1004,
  "E5": 291,
  "E53": 696,
  "E55": 292,
  "E6": 143,
  "E61": 853,
  "E65": 829,
  "E66": 144,
  "E7": 43,
  "E72": 1252,
  "E73": 1115,
  "E74": 640,
  "E75": 1155,
  "E78": 44,
  "E79": 1129,
  "E8": 160,
  "E80": 684,
  "E83": 425,
  "E84": 1126,
  "E85": 1028,
  "E86": 543,
  "E87": 161,
  "E88": 881,
  "E89": 465,
  "F": 8,
  "F0": 376,
  "F00": 377,
  "F01": 819,
  "F02": 1061,
  "F03": 1194,
  "F05": 778,
  "F06": 538,
  "F07": 1030,
  "F1": 60,
  "F10": 61,
  "F11": 1055,
  "F12": 575,
  "F17": 276,
  "F19": 1261,
  "F2": 882,
  "F20": 912,
  "F23": 1101,
  "F25": 1002,
  "F29": 883,
  "F3": 231,
  "F30": 1070,
  "F31": 784,
  "F32": 232,
  "F33": 710,
  "F34": 1258,
  "F39": 1173,
  "F4": 222,
  "F40": 244,
  "F41": 223,
  "F42": 972,
  "F43": 873,
  "F44": 1216,
  "F45": 633,
  "F48": 689,
  "F5": 587,
  "F50": 1091,
  "F51": 820,
  "F52": 588,
  "F6": 915,
  "F60": 916,
  "F7": 713,
  "F79": 714,
  "F8": 909,
  "F80": 942,
  "F81": 1200,
  "F84": 910,
  "F9": 827,
  "F95": 1183,
  "F99": 828,
  "G": 9,
  "G0": 842,
  "G03": 1114,
  "G04": 1037,
  "G06": 843,
  "G1": 676,
  "G11": 863,
  "G12": 677,
  "G14": 1181,
  "G2": 288,
  "G20": 367,
  "G21": 1125,
  "G23": 1000,
  "G24": 911,
  "G25": 289,
  "G3": 255,
  "G30": 801,
  "G31": 695,
  "G35": 586,
  "G36": 1246,
  "G37": 256,
  "G4": 50,
  "G40": 51,
  "G41": 206,
  "G43": 93,
  "G44": 325,
  "G45": 567,
  "G46": 541,
  "G47": 180,
  "G5": 118,
  "G50": 630,
  "G51": 445,
  "G52": 961,
  "G54": 731,
  "G55": 119,
  "G56": 246,
  "G57": 236,
  "G58": 681,
  "G6": 469,
  "G60": 590,
  "G61": 547,
  "G62": 470,
  "G63": 609,
  "G7": 922,
  "G70": 1232,
  "G71": 1256,
  "G72": 923,
  "G8": 481,
  "G80": 1088,
  "G81": 482,
  "G82": 610,
  "G83": 939,
  "G9": 219,
  "G90": 994,
  "G91": 848,
  "G93": 220,
  "G94": 1042,
  "G95": 822,
  "G96": 1212,
  "G97": 703,
  "G99": 680,
  "H": 10,
  "H0": 62,
  "H00": 63,
  "H01": 394,
  "H02": 393,
  "H04": 324,
  "H05": 892,
  "H1": 423,
  "H10": 992,
  "H11": 424,
  "H15": 1107,
  "H16": 444,
  "H17": 1094,
  "H18": 432,
  "H2": 54,
  "H20": 501,
  "H21": 780,
  "H25": 183,
  "H26": 55,
  "H27": 1189,
  "H3": 259,
  "H31": 809,
  "H33": 348,
  "H34": 434,
  "H35": 260,
  "H4": 204,
  "H40": 397,
  "H43": 205,
  "H44": 1203,
  "H45": 1254,
  "H46": 849,
  "H47": 745,
  "H49": 792,
  "H5": 415,
  "H50": 546,
  "H51": 1029,
  "H52": 664,
  "H53": 464,
  "H54": 471,
  "H55": 755,
  "H57": 416,
  "H59": 733,
  "H6": 174,
  "H60": 438,
  "H61": 697,
  "H65": 596,
  "H66": 175,
  "H68": 626,
  "H69": 832,
  "H7": 539,
  "H70": 1186,
  "H71": 737,
  "H72": 540,
  "H73": 593,
  "H74": 1012,
  "H8": 186,
  "H81": 187,
  "H83": 712,
  "H9": 103,
  "H90": 789,
  "H91": 104,
  "H92": 574,
  "H93": 949,
  "H95": 1253,
  "I": 11,
  "I0": 343,
  "I05": 991,
  "I07": 742,
  "I08": 344,
  "I1": 120,
  "I10": 121,
  "I11": 984,
  "I12": 776,
  "I2": 48,
  "I20": 149,
  "I21": 245,
  "I22": 620,
  "I24": 752,
  "I25": 49,
  "I26": 511,
  "I27": 920,
  "I3": 112,
  "I30": 1008,
  "I31": 113,
  "I33": 1220,
  "I34": 781,
  "I35": 345,
  "I37": 985,
  "I38": 954,
  "I4": 74,
  "I40": 702,
  "I42": 105,
  "I44": 455,
  "I45": 92,
  "I47": 496,
  "I48": 75,
  "I49": 612,
  "I5": 450,
  "I50": 451,
  "I51": 572,
  "I6": 386,
  "I60": 1034,
  "I61": 1019,
  "I62": 1192,
  "I63": 387,
  "I64": 1072,
  "I65": 817,
  "I67": 492,
  "I69": 1018,
  "I7": 240,
  "I70": 328,
  "I71": 729,
  "I72": 667,
  "I73": 241,
  "I74": 847,
  "I77": 902,
  "I78": 350,
  "I8": 88,
  "I80": 89,
  "I81": 1086,
  "I82": 968,
  "I83": 154,
  "I84": 184,
  "I85": 715,
  "I86": 165,
  "I87": 362,
  "I88": 661,
  "I89": 300,
  "I9": 270,
  "I95": 271,
  "I97": 1110,
  "I98": 1205,
  "I99": 1177,
  "J": 12,
  "J0": 252,
  "J00": 764,
  "J01": 597,
  "J02": 699,
  "J03": 253,
  "J04": 754,
  "J05": 599,
  "J06": 442,
  "J1": 576,
  "J10": 577,
  "J11": 805,
  "J12": 1015,
  "J13": 1217,
  "J14": 1121,
  "J15": 1103,
  "J18": 645,
  "J2": 402,
  "J20": 903,
  "J22": 403,
  "J3": 114,
  "J30": 115,
  "J31": 315,
  "J32": 227,
  "J33": 224,
  "J34": 179,
  "J35": 796,
  "J36": 323,
  "J37": 1202,
  "J38": 452,
  "J39": 821,
  "J4": 90,
  "J40": 660,
  "J41": 1163,
  "J42": 692,
  "J43": 740,
  "J44": 322,
  "J45": 91,
  "J46": 375,
  "J47": 420,
  "J6": 556,
  "J67": 1124,
  "J68": 557,
  "J69": 852,
  "J8": 521,
  "J84": 1032,
  "J85": 522,
  "J86": 1165,
  "J9": 304,
  "J90": 767,
  "J92": 797,
  "J93": 670,
  "J94": 898,
  "J95": 1167,
  "J96": 1127,
  "J98": 305,
  "J99": 1108,
  "K": 13,
  "K0": 86,
  "K00": 1134,
  "K01": 285,
  "K02": 87,
  "K03": 701,
  "K04": 314,
  "K05": 412,
  "K06": 573,
  "K07": 952,
  "K08": 553,
  "K09": 484,
  "K1": 312,
  "K10": 653,
  "K11": 622,
  "K12": 966,
  "K13": 313,
  "K14": 525,
  "K2": 52,
  "K20": 237,
  "K21": 53,
  "K22": 164,
  "K25": 209,
  "K26": 436,
  "K27": 1016,
  "K29": 163,
  "K3": 107,
  "K30": 108,
  "K31": 460,
  "K35": 127,
  "K36": 1010,
  "K37": 413,
  "K38": 669,
  "K4": 145,
  "K40": 146,
  "K41": 627,
  "K42": 159,
  "K43": 265,
  "K44": 235,
  "K46": 940,
  "K5": 84,
  "K50": 467,
  "K51": 463,
  "K52": 85,
  "K55": 530,
  "K56": 666,
  "K57": 185,
  "K58": 407,
  "K59": 228,
  "K6": 99,
  "K60": 297,
  "K61": 651,
  "K62": 100,
  "K63": 229,
  "K64": 126,
  "K65": 1111,
  "K66": 489,
  "K7": 333,
  "K70": 716,
  "K72": 1164,
  "K73": 1162,
  "K74": 1215,
  "K75": 617,
  "K76": 334,
  "K8": 202,
  "K80": 272,
  "K81": 203,
  "K82": 279,
  "K83": 273,
  "K85": 274,
  "K86": 907,
  "K9": 166,
  "K90": 339,
  "K91": 736,
  "K92": 167,
  "L": 14,
  "L0": 331,
  "L02": 559,
  "L03": 419,
  "L04": 1251,
  "L05": 437,
  "L08": 332,
  "L1": 647,
  "L11": 1213,
  "L12": 648,
  "L2": 417,
  "L20": 1033,
  "L21": 1105,
  "L23": 978,
  "L24": 943,
  "L26": 1214,
  "L27": 1038,
  "L28": 418,
  "L29": 953,
  "L3": 207,
  "L30": 208,
  "L4": 478,
  "L40": 479,
  "L43": 510,
  "L5": 395,
  "L50": 785,
  "L51": 1031,
  "L53": 804,
  "L56": 959,
  "L57": 396,
  "L6": 570,
  "L60": 571,
  "L63": 1240,
  "L65": 1074,
  "L66": 1207,
  "L7": 301,
  "L70": 1174,
  "L71": 890,
  "L72": 302,
  "L73": 303,
  "L75": 750,
  "L8": 421,
  "L81": 456,
  "L82": 422,
  "L83": 477,
  "L84": 945,
  "L85": 474,
  "L9": 68,
  "L90": 69,
  "L91": 427,
  "L92": 723,
  "L93": 1116,
  "L94": 958,
  "L97": 1089,
  "L98": 111,
  "M": 15,
  "M0": 523,
  "M00": 1011,
  "M02": 1149,
  "M05": 951,
  "M06": 524,
  "M07": 611,
  "M1": 78,
  "M10": 589,
  "M11": 765,
  "M12": 987,
  "M13": 158,
  "M14": 1083,
  "M15": 430,
  "M16": 473,
  "M17": 96,
  "M18": 79,
  "M19": 162,
  "M2": 140,
  "M20": 170,
  "M21": 488,
  "M22": 361,
  "M23": 261,
  "M24": 466,
  "M25": 141,
  "M3": 238,
  "M31": 719,
  "M32": 656,
  "M33": 1208,
  "M34": 957,
  "M35": 239,
  "M4": 373,
  "M40": 655,
  "M41": 637,
  "M43": 374,
  "M45": 1051,
  "M46": 769,
  "M47": 428,
  "M48": 602,
  "M5": 168,
  "M50": 698,
  "M51": 169,
  "M53": 659,
  "M54": 286,
  "M6": 192,
  "M60": 1233,
  "M62": 918,
  "M65": 282,
  "M66": 549,
  "M67": 193,
  "M7": 56,
  "M70": 743,
  "M71": 634,
  "M72": 57,
  "M75": 277,
  "M76": 815,
  "M77": 518,
  "M79": 329,
  "M8": 210,
  "M80": 1050,
  "M81": 211,
  "M84": 800,
  "M85": 309,
  "M86": 900,
  "M87": 946,
  "M88": 1172,
  "M89": 751,
  "M9": 798,
  "M93": 1257,
  "M94": 799,
  "M95": 1157,
  "M99": 1139,
  "N": 16,
  "N0": 391,
  "N02": 392,
  "N03": 1096,
  "N04": 790,
  "N1": 550,
  "N10": 724,
  "N12": 982,
  "N13": 551,
  "N17": 973,
  "N18": 766,
  "N19": 775,
  "N2": 214,
  "N20": 216,
  "N21": 1009,
  "N23": 215,
  "N25": 1170,
  "N28": 814,
  "N3": 133,
  "N30": 711,
  "N31": 728,
  "N32": 134,
  "N35": 139,
  "N36": 875,
  "N39": 176,
  "N4": 135,
  "N40": 136,
  "N41": 545,
  "N42": 625,
  "N43": 603,
  "N44": 1095,
  "N45": 818,
  "N47": 665,
  "N48": 644,
  "N49": 1112,
  "N5": 381,
  "N50": 382,
  "N51": 1201,
  "N6": 188,
  "N60": 384,
  "N61": 189,
  "N62": 356,
  "N63": 414,
  "N64": 321,
  "N7": 410,
  "N70": 880,
  "N71": 1102,
  "N72": 735,
  "N73": 628,
  "N75": 679,
  "N76": 411,
  "N8": 200,
  "N80": 217,
  "N81": 338,
  "N82": 1106,
  "N83": 552,
  "N84": 201,
  "N85": 218,
  "N86": 646,
  "N87": 562,
  "N88": 385,
  "N89": 459,
  "N9": 242,
  "N90": 534,
  "N91": 895,
  "N92": 243,
  "N93": 366,
  "N94": 490,
  "N95": 264,
  "N96": 1260,
  "N97": 426,
  "N99": 704,
  "O": 17,
  "O0": 247,
  "O00": 262,
  "O02": 248,
  "O03": 340,
  "O04": 548,
  "O1": 155,
  "O10": 1130,
  "O11": 1255,
  "O12": 888,
  "O13": 156,
  "O14": 671,
  "O16": 794,
  "O2": 249,
  "O20": 795,
  "O21": 993,
  "O22": 930,
  "O23": 893,
  "O24": 1109,
  "O26": 250,
  "O28": 1075,
  "O3": 341,
  "O30": 980,
  "O31": 1068,
  "O32": 641,
  "O33": 1218,
  "O34": 378,
  "O35": 1159,
  "O36": 342,
  "O4": 196,
  "O41": 862,
  "O42": 813,
  "O43": 935,
  "O44": 999,
  "O45": 1079,
  "O46": 486,
  "O47": 433,
  "O48": 197,
  "O6": 453,
  "O60": 791,
  "O61": 1187,
  "O62": 654,
  "O63": 584,
  "O64": 592,
  "O65": 1054,
  "O66": 1076,
  "O67": 1237,
  "O68": 533,
  "O69": 454,
  "O7": 198,
  "O70": 251,
  "O71": 652,
  "O72": 199,
  "O73": 1058,
  "O75": 1052,
  "O8": 64,
  "O80": 65,
  "O82": 591,
  "O9": 762,
  "O99": 763,
  "P": 18,
  "Q": 19,
  "Q0": 1153,
  "Q07": 1154,
  "Q1": 877,
  "Q12": 1128,
  "Q14": 1234,
  "Q18": 878,
  "Q2": 494,
  "Q21": 1043,
  "Q23": 1236,
  "Q27": 495,
  "Q28": 1136,
  "Q3": 528,
  "Q31": 1168,
  "Q37": 1221,
  "Q38": 529,
  "Q4": 1064,
  "Q43": 1065,
  "Q45": 1080,
  "Q5": 672,
  "Q50": 928,
  "Q51": 1245,
  "Q52": 673,
  "Q53": 1040,
  "Q54": 761,
  "Q55": 748,
  "Q6": 1118,
  "Q61": 1209,
  "Q62": 1120,
  "Q63": 1119,
  "Q64": 1259,
  "Q66": 1145,
  "Q8": 905,
  "Q83": 1140,
  "Q85": 1161,
  "Q87": 906,
  "Q89": 1023,
  "Q9": 1264,
  "Q91": 1265,
  "R": 20,
  "R0": 124,
  "R00": 254,
  "R01": 618,
  "R02": 1225,
  "R03": 897,
  "R04": 404,
  "R05": 296,
  "R06": 462,
  "R07": 125,
  "R09": 772,
  "R1": 109,
  "R10": 110,
  "R11": 839,
  "R12": 635,
  "R13": 623,
  "R14": 838,
  "R15": 493,
  "R16": 730,
  "R17": 749,
  "R18": 1250,
  "R19": 263,
  "R2": 307,
  "R20": 508,
  "R21": 779,
  "R22": 448,
  "R23": 1053,
  "R25": 1057,
  "R26": 887,
  "R27": 1073,
  "R29": 308,
  "R3": 150,
  "R30": 151,
  "R31": 390,
  "R32": 491,
  "R33": 480,
  "R35": 281,
  "R36": 1222,
  "R39": 732,
  "R4": 225,
  "R40": 846,
  "R41": 663,
  "R42": 358,
  "R44": 1244,
  "R45": 1195,
  "R46": 1035,
  "R47": 1060,
  "R49": 226,
  "R5": 268,
  "R50": 544,
  "R51": 269,
  "R52": 690,
  "R53": 506,
  "R54": 1150,
  "R55": 284,
  "R56": 353,
  "R59": 487,
  "R6": 137,
  "R60": 921,
  "R61": 826,
  "R63": 619,
  "R68": 694,
  "R69": 138,
  "R7": 613,
  "R70": 1007,
  "R73": 614,
  "R74": 1041,
  "R76": 871,
  "R79": 624,
  "R8": 97,
  "R81": 872,
  "R82": 1005,
  "R85": 98,
  "R86": 578,
  "R87": 605,
  "R89": 1137,
  "R9": 82,
  "R90": 1013,
  "R91": 476,
  "R93": 598,
  "R94": 83,
  "S": 21,
  "S0": 371,
  "S00": 532,
  "S01": 686,
  "S02": 600,
  "S05": 913,
  "S06": 891,
  "S09": 372,
  "S1": 860,
  "S10": 1026,
  "S11": 1069,
  "S12": 861,
  "S13": 1191,
  "S2": 369,
  "S20": 439,
  "S21": 1100,
  "S22": 443,
  "S27": 370,
  "S29": 782,
  "S3": 563,
  "S30": 604,
  "S31": 1117,
  "S32": 564,
  "S33": 700,
  "S39": 722,
  "S4": 554,
  "S40": 979,
  "S42": 555,
  "S43": 675,
  "S46": 753,
  "S5": 400,
  "S50": 1138,
  "S51": 1185,
  "S52": 401,
  "S53": 1175,
  "S56": 682,
  "S6": 354,
  "S60": 499,
  "S61": 355,
  "S62": 383,
  "S63": 687,
  "S64": 919,
  "S66": 363,
  "S68": 812,
  "S69": 948,
  "S7": 746,
  "S70": 1092,
  "S71": 1085,
  "S72": 886,
  "S73": 747,
  "S76": 1081,
  "S8": 131,
  "S80": 1093,
  "S81": 758,
  "S82": 132,
  "S83": 744,
  "S86": 579,
  "S89": 431,
  "S9": 351,
  "S90": 876,
  "S91": 352,
  "S92": 558,
  "S93": 615,
  "S96": 967,
  "T": 22,
  "T0": 970,
  "T02": 971,
  "T09": 1039,
  "T1": 756,
  "T16": 864,
  "T17": 850,
  "T18": 757,
  "T2": 298,
  "T20": 299,
  "T22": 1230,
  "T23": 1197,
  "T24": 1062,
  "T25": 936,
  "T3": 560,
  "T31": 1099,
  "T36": 960,
  "T38": 561,
  "T39": 824,
  "T4": 310,
  "T42": 468,
  "T43": 311,
  "T45": 908,
  "T5": 1238,
  "T50": 1239,
  "T6": 1066,
  "T60": 1067,
  "T63": 1090,
  "T66": 1262,
  "T7": 858,
  "T70": 1235,
  "T75": 889,
  "T78": 868,
  "T79": 859,
  "T8": 346,
  "T81": 449,
  "T82": 347,
  "T83": 845,
  "T84": 440,
  "T85": 513,
  "T86": 1204,
  "T87": 662,
  "T88": 774,
  "T9": 866,
  "T91": 955,
  "T97": 867,
  "U": 23,
  "U0": 854,
  "U07": 855,
  "V": 24,
  "V1": 1143,
  "V18": 1144,
  "V4": 925,
  "V48": 926,
  "W": 25,
  "W1": 1266,
  "W11": 1267,
  "W4": 1227,
  "W44": 1228,
  "W5": 840,
  "W50": 841,
  "X": 26,
  "X4": 933,
  "X41": 1151,
  "X49": 934,
  "X6": 1077,
  "X64": 1078,
  "Y": 27,
  "Y4": 1242,
  "Y42": 1243,
  "Y5": 1024,
  "Y53": 1025,
  "Y8": 738,
  "Y83": 739,
  "Y86": 896,
  "Z": 28,
  "Z0": 76,
  "Z00": 1048,
  "Z01": 657,
  "Z02": 932,
  "Z03": 278,
  "Z04": 503,
  "Z08": 182,
  "Z09": 77,
  "Z1": 116,
  "Z11": 638,
  "Z12": 142,
  "Z13": 117,
  "Z2": 834,
  "Z22": 975,
  "Z26": 1179,
  "Z29": 835,
  "Z3": 147,
  "Z30": 148,
  "Z31": 526,
  "Z32": 1087,
  "Z34": 1044,
  "Z35": 585,
  "Z36": 937,
  "Z37": 869,
  "Z4": 326,
  "Z40": 965,
  "Z41": 706,
  "Z42": 327,
  "Z43": 685,
  "Z44": 1206,
  "Z45": 674,
  "Z46": 475,
  "Z47": 734,
  "Z48": 870,
  "Z5": 212,
  "Z50": 1047,
  "Z51": 441,
  "Z52": 709,
  "Z53": 213,
  "Z6": 726,
  "Z60": 727,
  "Z7": 516,
  "Z71": 517,
  "Z72": 816,
  "Z76": 1199,
  "Z8": 336,
  "Z80": 527,
  "Z81": 1152,
  "Z82": 989,
  "Z83": 995,
  "Z84": 996,
  "Z85": 621,
  "Z86": 349,
  "Z87": 337,
  "Z88": 505,
  "Z89": 1147,
  "Z9": 80,
  "Z90": 725,
  "Z91": 1148,
  "Z92": 81,
  "Z94": 1190,
  "Z95": 461,
  "Z96": 280,
  "Z97": 986,
  "Z98": 1171,
  "Z99": 929
}
